[PAD]
[UNK]
[START]
[END]
!
#
$
%
&
'
(
)
*
+
,
-
.
/
0
1
2
3
4
5
6
7
8
9
:
;
=
?
@
[
\
]
^
_
`
a
b
c
d
e
f
g
h
i
j
k
l
m
n
o
p
q
r
s
t
u
v
w
x
y
z
¢
£
¿
æ
ø
τ
ย
ร
อ
–
—
‘
’
“
”
•
∇
♪
♫
the
and
to
of
that
in
it
we
you
is
this
so
they
was
for
are
##s
have
but
what
on
do
with
can
there
about
be
as
not
at
all
one
my
re
people
like
from
if
our
now
these
an
just
he
or
when
because
very
me
by
out
how
them
up
know
going
more
had
were
think
would
see
their
who
which
here
your
really
then
ve
us
get
time
world
##ing
has
some
actually
could
##ed
into
will
way
where
did
years
things
laughter
other
been
well
no
go
make
want
right
those
first
something
she
two
much
than
also
new
look
said
##d
little
thing
got
even
over
most
back
his
only
life
work
take
many
need
say
##ly
kind
does
lot
applause
around
why
every
good
different
let
through
down
her
same
come
ll
being
three
year
use
day
doing
put
today
##er
called
percent
any
##y
made
thank
after
human
tell
great
change
ca
find
fact
##e
its
should
another
big
idea
last
talk
own
started
before
better
might
never
together
000
important
able
problem
give
went
still
part
thought
##a
system
again
next
off
course
##r
story
each
ago
long
few
start
##t
technology
him
show
came
brain
bit
used
place
data
too
between
women
old
##n
mean
question
water
##es
example
looking
maybe
found
end
done
understand
10
##al
point
children
real
live
four
wanted
may
ever
love
whole
call
sort
school
away
trying
million
country
always
working
believe
person
everything
using
information
help
second
try
five
small
space
number
power
money
feel
create
means
thinking
man
took
high
times
##o
##ers
making
design
future
home
become
kids
enough
##l
quite
left
music
without
earth
city
best
happened
comes
getting
body
social
building
sense
food
energy
##i
less
am
countries
probably
pretty
talking
half
interesting
lives
coming
across
imagine
light
ask
told
science
such
dollars
anything
stuff
video
africa
simple
family
build
hard
saw
##ic
having
room
while
happen
health
young
computer
living
20
experience
ways
yet
play
side
makes
moment
asked
once
hand
almost
case
days
seen
project
far
okay
happens
open
later
picture
care
##able
nothing
process
move
reason
billion
both
inside
global
planet
else
states
men
single
learn
says
whether
already
often
remember
goes
six
basically
problems
public
##ation
cells
history
community
possible
bad
car
child
government
business
set
mind
within
looked
hope
sure
saying
face
someone
##on
keep
answer
months
yes
instead
amazing
##h
##m
sometimes
ideas
united
war
everybody
matter
bring
looks
self
myself
age
wrong
group
##k
since
##us
nature
top
##ment
100
until
built
order
##ity
form
book
##ness
beautiful
oh
cancer
30
heard
read
under
true
words
turn
woman
guy
job
control
line
places
species
piece
education
internet
##ion
research
society
though
taking
##an
works
couple
exactly
stories
##le
art
became
yeah
completely
everyone
decided
head
stop
run
company
50
middle
large
must
knew
disease
happening
learned
word
##rs
state
friends
against
share
level
mother
heart
language
rather
itself
night
america
model
questions
name
huge
kinds
##ting
study
animals
hear
themselves
##in
ourselves
century
gets
black
sound
past
hours
turns
finally
created
house
others
based
somebody
universe
thousands
ones
particular
india
worked
air
perhaps
news
environment
students
along
cities
learning
machine
early
front
per
systems
american
cell
god
##ia
least
lots
third
##p
outside
free
companies
scale
taken
changed
figure
minutes
15
gave
ok
reality
##g
##ive
natural
ted
difficult
during
seven
seeing
##c
takes
behind
close
entire
##ate
beginning
happy
china
full
ocean
team
culture
difference
needed
easy
leave
cost
##ry
area
audience
moving
size
##ized
given
image
media
land
eyes
guys
needs
york
humans
view
turned
economic
parents
##or
terms
wonderful
population
began
local
political
##ies
parts
simply
white
hands
longer
death
known
phone
growth
##ling
powerful
amount
grow
walk
common
felt
national
father
whatever
eight
climate
week
##ist
lost
realized
market
gone
yourself
certain
game
spend
green
oil
challenge
quickly
center
red
economy
surface
40
deal
changes
born
ability
##te
##u
girl
pay
step
blue
test
voice
either
interested
sitting
tried
growing
field
low
scientists
##th
opportunity
value
##ts
incredible
friend
buy
fish
poor
alone
hundreds
spent
street
weeks
ground
program
physical
risk
south
shows
dna
average
patients
complex
areas
feet
telling
images
movement
##less
behavior
speak
technologies
developed
write
##ian
met
understanding
die
##ter
##ize
brought
structure
access
law
##b
changing
numbers
paper
##ism
sea
watch
material
short
morning
rest
giving
##en
cars
millions
absolutely
deep
forward
fear
network
attention
blood
##0
books
starting
literally
tools
issue
lab
individual
recently
bottom
development
miles
realize
##est
##ted
animal
force
stage
act
##ine
seems
feeling
nice
wo
anyone
cut
fly
fast
hold
key
##ch
ice
knowledge
##man
digital
result
computers
clear
innovation
discovered
solution
support
##ary
europe
generation
save
type
creating
solve
running
##um
personal
produce
gives
rate
medical
color
developing
industry
north
wrote
eat
kid
patient
designed
##ge
choice
##ar
nobody
film
sun
truth
wall
allow
putting
##nt
several
##ally
dark
normal
cause
stand
##ble
girls
special
especially
eye
soon
tiny
carbon
lived
talked
12
groups
beyond
begin
major
map
resources
reasons
trust
impact
##x
chance
relationship
sounds
##is
available
likely
meet
shape
stay
theory
term
fun
seem
source
cool
effect
issues
rights
approach
asking
experiment
becomes
violence
##f
baby
class
university
dead
modern
security
towards
international
please
drive
guess
send
focus
explain
incredibly
showed
##et
device
obviously
similar
product
rules
google
##ent
##ful
plants
##ated
code
solar
worth
anybody
bigger
box
drugs
drug
pictures
action
african
involved
movie
online
hour
hundred
certainly
democracy
evolution
playing
revolution
200
basic
potential
english
led
message
perfect
##ce
nine
plant
examples
particularly
situation
died
mars
present
walking
month
##tion
60
##ty
##w
general
11
indeed
pick
ready
showing
quality
evidence
office
measure
web
west
journey
higher
knows
reach
eventually
lead
scientific
strong
25
leaders
schools
teach
boy
##ous
communities
speed
writing
add
anyway
robot
among
dream
college
##it
everywhere
largest
mass
moved
non
road
wants
##ure
crazy
creative
organization
role
safe
listen
results
son
develop
projects
biggest
buildings
continue
period
sex
starts
sit
camera
further
objects
plan
tree
connected
exciting
medicine
fight
hospital
suddenly
compassion
families
object
##st
choose
materials
onto
perspective
success
zero
##ie
hit
individuals
machines
poverty
village
vision
favorite
notice
skin
trees
crisis
essentially
extraordinary
minute
##ial
break
mine
##ant
table
##les
faster
nuclear
##ists
grew
intelligence
jobs
##land
architecture
conversation
follow
service
forest
##ns
killed
wait
genes
student
bacteria
fire
however
progress
response
smart
software
totally
wife
##el
usually
cases
chinese
cold
doctor
finding
screen
standing
traditional
above
models
##age
shown
east
fundamental
including
##ping
worse
500
decision
meant
named
somewhere
spread
increase
##ile
##king
allowed
governments
pattern
successful
police
tool
##re
door
pieces
wind
central
complicated
electricity
larger
mom
thousand
record
watching
##ck
fall
forms
interest
lose
sent
specific
consider
excited
extremely
protect
context
late
older
goal
institutions
supposed
americans
income
list
patterns
products
solutions
biology
exist
freedom
memory
taught
tells
##8
##2
##ance
clearly
financial
games
##ors
bodies
bunch
teachers
80
conditions
hiv
ended
impossible
private
thanks
activity
positive
rich
somehow
teacher
treatment
##z
neurons
policy
recognize
square
therefore
##4
allows
decades
fine
song
waste
##led
site
##se
capital
citizens
expect
lower
serious
sorts
wish
##1
lines
truly
visual
peace
##ma
##ra
kept
slow
##ments
18
clean
healthy
although
series
travel
##3
##ization
bank
humanity
president
alive
decisions
page
wonder
##ual
genetic
politics
##ities
critical
foot
greatest
happiness
military
smaller
touch
anymore
effective
engineering
throughout
##ating
aid
becoming
except
robots
##tic
challenges
provide
famous
loved
moral
region
services
speaking
upon
written
anywhere
doctors
hot
training
costs
dangerous
gas
gene
main
near
park
points
stars
actual
unfortunately
beings
brains
floor
himself
range
studies
##line
feed
price
reading
tend
##6
##il
expensive
skills
concept
driving
immediately
performance
##5
##izing
##tive
fantastic
hey
organizations
train
tv
waiting
meaning
mental
beauty
conflict
magic
mobile
pain
shot
values
##ious
diseases
pressure
##ging
final
production
search
unique
virus
earlier
wealth
daughter
environmental
none
workers
choices
current
star
chris
connect
kill
walked
greater
colleagues
laws
rise
##de
recent
##ged
following
legs
store
subject
relationships
western
decade
seconds
##ve
levels
direction
forget
shared
##ps
massive
party
religion
dog
position
societies
strange
town
trade
##9
mostly
river
career
content
moon
programs
pull
dr
infrastructure
version
whose
##ne
atmosphere
flow
flying
sky
streets
complete
consciousness
john
mountain
museum
##7
female
forth
nation
summer
weight
plastic
directly
temperature
treat
useful
dollar
familiar
invented
types
bed
dad
enormous
helped
listening
understood
uses
willing
300
dance
board
london
physics
##ding
rule
##ny
address
closer
highly
urban
various
##ler
##v
ran
sustainable
teaching
##ring
90
apart
connection
decide
nearly
radio
terrible
worst
70
instance
secret
stopped
civil
fit
industrial
sharing
##pe
##ving
ahead
aware
hole
remarkable
text
##ning
##red
california
character
markets
cultural
function
genome
track
##os
artist
capacity
communicate
explore
fuel
minds
push
slide
16
ancient
arm
communication
degrees
draw
male
prison
seemed
sell
sign
sorry
causes
experiments
improve
race
slightly
dying
justice
press
attack
carry
designers
experiences
raise
24
inspired
noticed
practice
scientist
event
meeting
##at
despite
devices
obvious
path
survive
##ue
14
basis
produced
sleep
straight
win
extra
original
##cy
##ls
math
reduce
related
stem
television
below
photograph
##ence
##id
afraid
creativity
farmers
forces
heat
##ped
biological
networks
post
quick
##ol
birth
effects
held
sat
twice
worry
##way
island
sick
emotional
feels
glass
hearing
planets
speech
##ms
broken
foundation
responsibility
standard
website
achieve
artists
conference
discover
facebook
played
supply
surgery
task
tissue
ultimately
virtual
##ium
##ned
afghanistan
mission
report
##hip
apply
differently
king
matters
significant
##ions
##na
answers
easily
evolved
missing
moments
nations
paid
stick
structures
##as
bill
corner
##ish
bridge
degree
diversity
fix
landscape
possibly
turning
drop
eating
efficient
giant
importantly
gotten
helping
imagination
bought
bringing
differences
european
otherwise
total
chemical
members
return
##ur
babies
definition
easier
knowing
pass
purpose
rock
spending
meters
published
shift
##tor
brand
brings
engage
join
strategy
trouble
##ations
##ible
complexity
core
fully
funny
investment
molecules
won
##ll
billions
describe
entirely
forever
passed
birds
collective
focused
japan
legal
lights
offer
popular
religious
hair
majority
mr
brother
extreme
malaria
walls
##cing
agree
indian
neighborhood
noise
organisms
##ability
bone
check
david
notion
photo
san
stuck
studying
##up
blind
creates
double
loss
##bs
##der
##ke
edge
oxygen
saving
circle
engineers
painting
passion
traffic
3d
benefits
discovery
identity
visit
window
##sion
13
active
base
boys
crime
opportunities
400
trial
17
afford
depression
elements
failure
invisible
letter
phones
wild
aids
respect
##nce
ball
brazil
possibility
##ical
##ified
##sh
leads
lesson
opened
prize
sold
vast
##tes
distance
leading
cover
flight
opposite
raised
soil
bear
calls
campaign
fighting
leadership
managed
throw
##ins
benefit
demand
etc
fairly
french
interact
predict
##ss
block
colors
consequences
cycle
effort
invest
responsible
target
transform
background
childhood
compared
cross
dreams
email
foreign
limited
lucky
respond
surprise
trained
tremendous
yellow
##am
##ans
##rate
apple
necessary
super
##me
asia
closed
labor
studied
account
catch
failed
gold
kilometers
lack
professor
researchers
sector
british
coffee
due
events
holding
husband
necessarily
suffering
coast
deeply
everyday
hidden
talks
##ration
balance
cheap
currently
emotions
faces
helps
oceans
150
agriculture
caught
debate
farm
figured
finished
motion
phenomenon
spaces
washington
card
magazine
##ably
##ite
##ties
believed
era
names
proud
represent
seriously
##ip
commercial
constantly
enjoy
grown
hopefully
leader
mouse
profound
random
sand
sequence
signal
tumor
wide
##ks
##ut
caused
cloud
followed
increasingly
iraq
leaving
mathematics
multiple
tough
whom
##nd
##rating
##ro
al
argue
artificial
compare
competition
dimensional
driven
electric
mentioned
pounds
rain
typical
##sive
desire
engineer
invited
mothers
platform
sudden
tomorrow
twitter
##uring
begins
damage
experts
factory
folks
la
normally
planning
unless
##ets
##ically
##ings
contact
count
fashion
moves
negative
principle
separate
surprised
tons
##la
continent
creation
movies
safety
wearing
##ters
condition
creatures
deeper
deliver
department
desert
fascinating
fields
gender
germany
mexico
slowly
steps
surprising
##ton
bird
civilization
co2
considered
gdp
identify
prevent
wow
##ay
##ology
##om
##ri
according
finger
hell
organized
photos
scene
signals
wear
adults
army
de
principles
received
rural
spot
survival
threat
##dy
##light
##rt
##to
businesses
faith
harder
lady
leaves
spirit
station
stress
treated
##ire
##per
##ze
ants
avoid
bits
capable
equal
fourth
generations
homes
jump
management
microbes
rates
universal
vote
##ct
##sing
affect
collect
concerned
highest
influence
insects
married
ray
weird
##ds
boat
brilliant
essential
independent
plane
processes
sexual
theater
trillion
trip
described
exists
goals
interaction
lies
paying
picked
quote
specifically
technical
##ner
breast
fair
fund
heads
keeping
ladies
net
particles
ship
wisdom
##zing
accept
advantage
bees
filled
lie
operating
pages
property
protein
risks
satellite
smell
##ber
##ians
##rd
20th
characters
corruption
daily
dealing
designing
effectively
emissions
ends
equivalent
fell
graph
hate
struggle
toward
whenever
##ee
##ries
arms
designer
honest
launched
paint
sentence
valley
weapons
worried
yesterday
belief
calling
cameras
democratic
direct
drawing
galaxies
galaxy
healthcare
letters
lunch
manage
meat
mile
organic
saved
sister
stood
ten
21st
advanced
australia
chain
clinical
detail
emerging
exercise
gay
layer
note
spoke
testing
watched
##ah
analysis
appear
court
existence
facing
mouth
rare
requires
sending
users
versus
##ification
##ral
amazon
awesome
cat
covered
date
perfectly
tens
transportation
vehicle
voices
##ky
##med
##ncy
argument
charge
coal
cutting
dry
producing
release
wake
weather
##ute
adult
beat
importance
opening
politicians
processing
tech
variety
35
autism
conversations
curious
manufacturing
maps
professional
promise
regular
shapes
##ide
##ture
accident
grandmother
kenya
ordinary
singing
suggest
switch
tail
transformation
waves
##men
alternative
feelings
flu
forced
grand
iran
languages
mountains
reaction
remote
southern
##ey
arts
experienced
gap
intellectual
marriage
metal
molecule
pre
sad
##des
##pt
addition
bread
canada
comfortable
connections
construction
evolutionary
increasing
institute
losing
match
muscle
narrative
nervous
plus
techniques
thinks
##istic
##va
church
einstein
fail
inequality
library
movements
organs
richard
##ify
##ition
broke
brown
engine
leg
mark
possibilities
relatively
roughly
statistics
##bly
##ming
##oo
##val
airplane
credit
details
lifetime
member
prove
roll
shoes
sub
unit
worldwide
##ded
##ibility
##ley
##ved
economics
forests
inner
killing
method
pop
protection
radiation
rapidly
rid
sum
thoughts
wondering
ah
battery
blocks
centers
collection
consumption
cure
dinner
epidemic
equipment
fellow
finish
generate
honor
messages
mit
northern
radical
warming
##ard
##mer
aging
chemistry
congress
da
exchange
increased
previous
required
resource
seat
user
videos
wave
##da
##ot
affected
anti
dimensions
enter
exact
exploration
feedback
fill
garden
gentlemen
hall
intelligent
joy
location
medium
nasa
privacy
sides
soldiers
spring
wars
whereas
##ied
##ow
camp
conscious
copy
dots
dynamic
employees
expected
fossil
link
participate
remain
round
scared
sites
terrorism
tradition
##ates
arrived
budget
drink
existing
george
holes
pole
symptoms
britain
empty
goods
interface
strength
underneath
worlds
##ier
##ome
##ular
75
99
capture
carefully
curve
dinosaurs
distribution
electrical
gift
houses
israel
require
teeth
typically
##ca
associated
awful
battle
bright
define
express
flat
fresh
gun
heavy
keeps
mortality
prime
selling
steel
transition
##by
##ick
##time
45
definitely
election
expression
france
francisco
perception
ride
sources
victims
##aging
##ched
##ka
##ulate
absolute
chemicals
click
clock
environments
formed
fundamentally
nigeria
partners
reached
silence
##ery
##ft
breath
bus
carrying
convinced
grade
gravity
grid
introduce
liquid
spectrum
stone
valuable
##ants
##ient
ancestors
behaviors
combination
naturally
organism
potentially
puts
regions
released
traveling
unlike
##ad
##ign
##im
##io
##nts
##que
##son
##ug
2000
2008
bubble
cultures
ii
lay
lessons
molecular
primary
printing
represents
roads
sees
union
unknown
##board
##ked
actions
bang
challenging
driver
drives
generated
japanese
outcome
poetry
pregnant
recorded
replace
sample
serve
stupid
technological
trick
##ore
##ward
applied
buying
classroom
diet
factor
fat
generally
lying
minister
option
partner
studio
vaccine
##rant
##ron
added
article
cognitive
components
grandfather
institution
islands
mathematical
muslim
paul
productive
volume
##hy
##ics
##ir
anderson
beach
consumer
convince
depends
embrace
falling
harvard
joined
los
motor
parent
properties
resistance
setting
swim
##ened
##ill
##ves
acting
algorithms
cards
cave
chair
controlled
destruction
detect
invention
mid
resolution
songs
sophisticated
tonight
visible
zone
##ld
confidence
coral
correct
doubt
engaged
entrepreneurs
factors
funding
gain
graduate
horse
james
kitchen
launch
metaphor
neighbors
newspaper
restaurant
sensitive
suppose
trials
vulnerable
warm
##low
appreciate
awareness
director
explained
hide
include
introduced
literature
mechanism
monkey
notes
options
perform
relative
remind
solving
status
style
winter
##ice
##lin
600
activities
authority
economies
england
hospitals
illness
protected
struck
violent
##ons
concrete
discussion
dogs
master
meaningful
mystery
pacific
pair
patent
prepared
print
roof
survey
swimming
upper
viruses
##cent
##ction
##fy
##logists
##vation
2010
attacks
borders
chicken
claim
constant
encourage
explanation
facts
fewer
frankly
hoping
immune
logic
march
memories
nor
organ
records
snow
ultimate
##late
##my
ai
bag
collaboration
equality
films
finance
flies
frame
hotel
innovative
laboratory
operate
pleasure
proteins
relevant
runs
solved
tests
##go
##ished
##ney
##out
accurate
arab
bomb
bottle
centuries
chose
clip
crash
disaster
evening
faced
occurred
operation
poem
quantum
remains
reward
sensors
shaped
situations
youtube
##its
##rine
##ulating
architects
bush
capitalism
computing
cup
dozen
ecosystem
efficiency
expand
largely
mechanical
opinion
photographs
quarter
row
soul
staff
##ach
##ric
##sm
##ule
2009
collected
dropped
emotion
enable
fold
globe
grab
hydrogen
illegal
infected
judge
miss
occur
practical
quiet
remove
rice
rising
sing
windows
##ator
##lands
##ten
advice
channel
charles
chip
deaths
electronic
hurt
inspiration
interests
interview
linked
pulled
vehicles
bg
display
evil
false
gps
marine
mention
novel
parking
physically
policies
pollution
providing
refugees
section
signs
teams
therapy
thin
##ars
##car
##ens
##ise
##un
acts
agency
burning
conservation
crowd
curiosity
dramatic
empathy
error
evolve
jail
liked
neither
paris
recording
skill
topic
wood
##bo
##ga
##sis
19th
afternoon
algorithm
angeles
applications
aspects
border
boring
busy
causing
eastern
feeding
measured
odd
percentage
silk
sustainability
telescope
##ger
##tors
allowing
assume
bones
brothers
button
chicago
clothes
criminal
defined
ears
equally
greenhouse
instrument
length
marketing
multi
nose
nowhere
placed
profit
pushing
rooms
shop
succeed
sugar
tape
theme
transparency
##bi
##gs
##logist
##ological
admit
angry
boxes
chart
closely
cortex
creature
emergency
former
instruments
michael
personally
russia
september
sight
sports
stronger
tall
writer
##ria
amounts
cheaper
darwin
distributed
flew
hits
input
january
peak
performing
recognized
surely
taste
unusual
##ination
##uation
connecting
invent
mirror
musical
productivity
raw
roots
statement
stayed
suicide
tax
thomas
##point
##set
250
balloon
clinic
determine
element
extent
implications
mistake
phase
populations
scan
score
secure
vaccines
wondered
##ives
##ump
ages
agreed
architect
dancing
danger
defense
efforts
equation
fiction
figures
fusion
german
horrible
insight
laptop
mistakes
na
pakistan
provided
rational
seeds
sphere
sunlight
tracking
unexpected
welcome
wire
worker
youth
##rian
##tle
##uity
##ulation
2007
abstract
attempt
bar
boston
cents
chaos
citizen
conclusion
consumers
crying
exposed
fears
floating
functions
harm
insurance
magnetic
mice
obama
offered
overall
puzzle
reported
severe
toxic
treating
##ering
##her
##ta
##use
21
22
ant
aspect
bias
breathe
combined
exploring
farmer
feature
imagined
limits
piano
reaching
savings
season
sets
shall
technique
##side
##ud
##uous
application
axis
bet
careful
circumstances
combine
continued
contrast
customers
educational
eggs
falls
features
iphone
outcomes
peer
player
repair
selection
stream
suffer
tested
##ered
##sed
banks
breaking
classic
collapse
domestic
expert
hi
maintain
ought
proof
relate
removed
searching
senses
shake
trend
wherever
wine
zoom
##ative
##ography
##rous
##uit
##ust
atoms
conventional
decline
fake
grows
internal
journalist
mix
obsessed
ph
receive
reverse
samples
soft
steve
traveled
whales
##gle
##one
##op
##za
africans
amongst
band
clouds
co
collecting
com
comfort
disappear
egypt
federal
fishing
fuels
height
interactive
joke
loud
lung
mess
ours
plans
plays
pm
polio
recognition
scary
signed
somewhat
spreading
sweet
younger
##ase
##co
##rn
##tation
19
achieved
apartment
barely
carried
celebrate
colony
cooking
existed
fascinated
fingers
handle
hang
interestingly
milk
painful
passionate
practices
presented
reference
subjects
tasks
underwater
wanting
23
abuse
app
behavioral
climb
communications
debt
destroyed
disorder
dramatically
engaging
globalization
grain
paradigm
plate
players
pollen
shark
strangers
surrounded
tom
transformed
wheel
##ade
##ches
##een
##matic
##uck
automatically
captured
corporate
council
courage
economists
elephant
escape
identical
monkeys
orbit
paintings
plenty
queen
root
silicon
standards
suit
##ale
##ray
##ress
cash
cord
dense
depend
dioxide
dot
drinking
elections
enemy
fifth
golden
gray
historical
lake
microscope
papers
pocket
rocket
seed
shoot
split
symbol
thrown
ugly
wireless
##cence
##hood
##ively
##ury
##ver
##vy
60s
accessible
adapt
appropriate
divide
drove
fixed
fortunately
framework
heroes
housing
humor
mammals
personality
precisely
presence
rocks
smile
stock
string
suggests
toy
##als
##cted
##gation
##ured
##vable
65
birthday
christmas
diverse
ear
exhibition
experiencing
genius
hunger
hungry
laugh
lets
methods
micro
neighbor
neighborhoods
overcome
pink
prices
raising
rely
robotic
shock
solid
spinal
##head
##ight
##ily
##lock
##tical
##wood
bike
blow
clever
concepts
cooperation
dignity
hello
hollywood
infinite
invite
kingdom
latin
limit
liver
passing
pool
tea
virtually
##ak
##bling
##fied
##stic
##tain
##tions
##zed
accepted
antibiotics
breathing
burn
disorders
doors
drill
electronics
estimate
extinct
flowers
interacting
june
korea
manhattan
optimistic
organize
poorest
presentation
shirt
surgeon
##bia
##ham
##ior
##pers
##ses
appears
cartoon
committed
contribute
density
depending
diabetes
essence
guns
hero
legacy
meter
ms
neuron
nobel
official
properly
strategies
surveillance
toilet
villages
whale
##ain
##ast
##eo
##lves
##py
##ub
aside
audio
component
extract
facial
gates
gut
hardware
ideal
inspire
iron
latest
license
measuring
myth
needle
oldest
philosophy
privilege
psychology
secondly
vital
##bing
##city
##ff
##iring
##lies
##ude
##uing
##ung
##ways
affordable
apparently
classes
commitment
concern
controlling
delivered
destroy
dh
distant
dozens
elsewhere
entertainment
fed
frozen
habitat
incentives
islam
mechanisms
pilot
powers
seek
shut
tries
##dle
##ell
##ha
##ok
##sa
##ying
attached
conflicts
cute
diagnosed
entered
expectations
friendly
host
increases
integrated
involves
journalists
laser
objective
olds
orange
phrase
prefer
produces
pure
pushed
shoulder
skull
stands
sweden
thirds
title
truck
unclear
underlying
usual
witness
##bed
##gy
##ica
##ining
##let
##work
70s
800
adding
agencies
alzheimer
bay
dedicated
directions
divided
ensure
focusing
frequency
granted
grass
hearts
interactions
laid
loop
lovely
native
operations
picking
responses
rhythm
sir
stanford
tap
##tter
##ulated
90s
adam
advance
advertising
animation
antarctica
beliefs
cook
dinosaur
dirty
gather
grandchildren
hardly
herself
parties
programming
psychological
represented
resistant
satellites
silent
sisters
spider
ta
vertical
##ils
##ino
##lap
##ster
##ul
##water
agenda
anger
capita
congo
consume
continues
cow
crops
crucial
educated
ethiopia
fruit
functional
infection
layers
leap
mayor
output
parallel
powered
prototype
regime
rush
simplicity
smarter
speaker
stable
tired
uncomfortable
units
##ap
##ert
##hs
##iness
##j
##ki
##mi
##rts
##uce
##verse
2005
700
airport
angle
announced
brave
chimpanzees
confident
consequence
counter
designs
embedded
flows
forgotten
garbage
globally
hum
ignore
includes
investing
locked
naked
obesity
pointed
protecting
ring
slides
terrorists
transport
trends
universities
variation
visited
##back
##gram
##load
##ni
##pose
##rial
##uate
95
actors
ate
beer
chest
colleague
diagnosis
don
dress
dust
enabled
fluid
genetically
guide
hill
hire
imaging
knee
meetings
nets
opposed
pace
pig
polar
provides
script
shame
spectacular
struggling
terror
texas
touched
tower
tube
uncle
wikipedia
##igned
##ined
##ris
academic
alien
capability
dependent
dimension
disability
fought
governance
holds
isolated
lifestyle
mainly
narrator
neural
observation
ooh
rarely
recovery
reform
religions
route
scratch
stations
victim
walks
##cies
##fully
##logy
##pes
##tal
120
2004
80s
actor
arctic
atlantic
backwards
bee
biodiversity
choosing
flexible
football
gon
impacts
lecture
mad
makers
martin
muslims
nest
reflect
rwanda
shooting
spiritual
underground
vessels
##cating
##fer
##mal
##ually
2011
27
affects
appeared
behave
chapter
chocolate
circuit
contract
dan
database
dictionary
documents
drawn
engagement
fabulous
ghana
hanging
illusion
improvement
lens
luck
officer
opens
organizing
origin
originally
permission
predicted
relations
reminded
reveal
richer
secrets
served
synthetic
tragedy
transparent
##atic
##ators
##berg
##eer
##fish
##inate
##room
##zation
afterwards
anonymous
begun
blame
boundaries
cats
contemporary
ed
facility
flower
funded
inch
inevitable
innovations
missed
monitor
nurses
printed
proper
radically
react
repeat
returned
ridiculous
sciences
telephone
transfer
twenty
voting
weapon
wing
##bit
##els
##ex
##gon
##ines
##ural
additional
assumptions
author
bears
ceiling
circles
cry
desk
disappeared
discoveries
dolphins
earn
elected
extend
fan
fastest
furniture
gulf
harvest
liberal
males
microsoft
participation
permanent
reputation
rivers
robert
sculpture
stores
subtle
suffered
thick
threw
till
##aking
##au
##cture
##do
##hed
##iest
##ony
##rm
##rry
2012
bicycle
brief
briefly
civic
document
edges
ending
exponential
extended
filter
flag
gods
haiti
identified
ingredients
killer
load
nutrients
photographed
photography
rapid
sharks
stranger
terrorist
wired
##atory
##house
##ina
##lines
##pa
2006
32
agricultural
aircraft
assets
blog
broad
contain
county
engineered
explosion
fabric
failing
finds
founded
grateful
hackers
highway
immediate
italy
jewish
mary
neuroscience
painted
partly
passwords
photographer
refugee
rescue
slavery
smoking
tears
tip
treatments
views
##aries
##gue
##lla
##nal
##over
##pped
##ram
##uel
##ues
##ures
bf
biologists
characteristics
chief
depth
ecosystems
emerged
fiber
footprint
frustrated
humanitarian
instructions
intense
letting
likes
october
oxford
peter
pile
precise
prosperity
reports
safer
scales
seats
simulation
stages
symmetry
tag
targets
threats
uganda
##han
##icing
##ited
##lo
##oid
##ose
##posing
##tling
##unt
accidents
ad
baseball
bats
belong
chances
chosen
combat
confused
daughters
dialogue
drivers
ebola
established
exception
golf
lift
links
methane
mosquito
muscles
owned
physician
plot
prepare
pump
scenario
smoke
speakers
sticks
surprisingly
symbols
tied
tour
transplant
tumors
wise
yours
##ba
##ew
##fall
##gate
##ges
##ility
##ius
##lation
##no
##off
##ort
##right
##tone
##une
1990s
assembly
clients
dear
download
earthquake
external
farming
initially
inspiring
jumped
lawyer
mindset
nerve
pack
parks
participants
prediction
primarily
promote
robust
session
shadow
silly
stops
suggesting
tackle
theories
unable
##ab
##cks
##dication
##hand
##mark
##ura
2001
abilities
analyze
architectural
arguments
attitude
autonomous
bob
calculate
categories
clay
darkness
diagram
enables
expansion
factories
favor
feminist
flip
forming
headed
hitting
initial
labs
landed
review
sentences
sleeping
talent
terrifying
throwing
unprecedented
weak
widely
##box
##eral
##ipped
##lt
##mic
##nic
##oth
##rge
artistic
bars
delivery
demonstrate
discuss
elite
figuring
friday
geographic
greek
handed
investors
linear
magical
matrix
mixed
mobility
odds
poet
positions
probability
reduced
rough
salt
scores
separated
shopping
spots
translate
##0s
##cation
##ift
##ig
##iting
##ivity
##od
##ptic
##tte
##vo
activists
array
badly
capabilities
category
ceo
chips
dig
district
excuse
expanding
extinction
genocide
index
industries
informed
injury
invested
jim
kick
leverage
measures
opera
optimism
orchestra
panel
predictions
pretend
pyramid
recover
serving
shelf
skeleton
spanish
spoken
teenagers
titan
tricks
unbelievable
van
wildlife
##cal
##ces
##ng
##west
adventure
anxiety
approaches
arrive
bell
bible
canopy
club
competitive
contains
corporations
determined
emerge
encounter
frank
gradually
heaven
mate
microbial
mode
musicians
observe
owner
penguins
primitive
rat
realm
rolling
sacred
sensory
similarly
ss
stones
successfully
survived
trucks
upset
wider
winning
##den
##dies
##gen
##hing
##ifying
##iles
##ko
##li
##lly
##ole
##res
##shed
26
aim
algae
arrested
cable
compete
connectivity
conservative
consistent
constructed
controls
economist
expertise
file
fragile
gathering
imagery
innocent
insect
listened
mall
miracle
occasionally
pigs
revenue
rio
sons
soviet
toys
transmission
##bility
##inating
##ison
##lating
##og
##pies
##ume
##uting
2003
asks
attract
besides
boom
boss
burden
buried
chairs
climbing
closest
collaborative
collectively
computation
deserve
drawings
elderly
ethical
explaining
footage
ford
garage
glad
horizon
intuition
intuitive
laughing
lighting
nsa
nurse
printer
pro
quit
regardless
renewable
rome
sheep
sheet
shell
shifting
simultaneously
steal
storytelling
strike
strongly
suggested
supported
tank
threatened
traditions
tribes
unlikely
warning
wings
##care
##cular
##erative
##flies
##itive
##lessly
##ord
##ren
##rium
##than
##ville
achievement
blowing
bubbles
cartoons
colonies
conclude
depressed
detailed
entering
excitement
firm
fraction
gases
included
independence
intervention
kevin
marry
perceive
pound
pulling
rays
rebuild
reliable
remembered
replaced
replicate
resilience
shrimp
sits
soldier
someday
tends
tragic
tuna
versions
##ades
##ane
##bert
##cus
##mon
##ption
##tch
##ules
##van
##we
airplanes
blank
closing
convert
corn
crossing
december
demographic
educate
february
florida
hip
improving
initiative
islamic
limb
loan
magnitude
palm
pen
pitch
poster
purposes
rb
representation
rose
shelter
storm
surfaces
thumb
trains
uncertainty
volunteers
##bra
##ild
##ologist
##ots
##posed
##rated
##rus
accounts
administration
adopted
agreement
answered
authorities
barrier
breaks
damn
demonstration
experimental
extension
fancy
glasses
ha
jack
luckily
meal
mri
narrow
nearby
offices
openness
origami
particle
peaceful
physicist
precious
preserve
prisons
publish
qualities
reducing
regret
scott
seeking
supporting
whatsoever
writers
yorker
zones
##ages
##ci
##culation
##fe
##iate
##ites
##mate
##ph
##power
##row
##tory
##ught
##used
##wed
adapted
armed
assumption
asteroid
asteroids
bags
cambridge
caring
caves
channels
charity
comment
crop
currency
dolphin
dressed
drew
estate
estimates
expedition
fathers
improved
instantly
journal
lawyers
loans
mechanics
mosquitos
neck
plug
portrait
quest
reef
ticket
trajectory
trigger
wash
##amp
##book
##end
##ential
##kes
##lum
##ota
##pel
##table
##uses
##zi
astonishing
bedroom
cast
cheese
christian
command
comparison
continents
copyright
description
domain
dominant
empire
eric
fortunate
glacier
graphics
helpful
homeless
ignorance
injustice
institutional
jellyfish
knife
located
mike
monitoring
motivation
mysterious
norway
pairs
perceived
preparing
previously
professionals
profoundly
protest
rainforest
realizing
recipe
reminds
russian
sales
saturn
smooth
soup
waters
##cs
##ean
##fect
##fying
##gging
##gic
##ivate
##list
##lon
##nsive
##ologists
##place
##pressed
##ran
##rey
##rin
##rk
##ser
##tained
##technology
##ull
##uted
ak
applying
bizarre
bottles
burned
cellular
circuits
conducted
confront
continuous
deaf
derek
dynamics
eaten
empowered
entropy
entry
excellent
foods
guilty
hacking
headlines
honey
household
insights
interior
mail
mapping
mold
newspapers
observed
offers
oxytocin
parliament
planes
refer
retirement
senior
silver
sport
temperatures
tissues
wheat
##active
##ana
##eek
##fication
##field
##fold
##llas
##ox
##rad
##ugh
##und
##unk
2050
alcohol
anatomy
arabic
beating
bond
challenged
claims
clothing
compelling
cooperate
corals
deforestation
demands
disabled
distinct
dominated
ecological
elephants
enforcement
facilities
fibers
flash
flowing
gaps
gathered
grandparents
holy
homework
honestly
huh
inches
interviewed
italian
jesus
kidney
lord
mood
motivated
navigate
neat
nights
olympics
personalized
posted
promised
propose
remaining
restore
saharan
scenes
seas
selected
ships
spin
stability
staring
staying
stored
stroke
subway
tie
vacation
woke
##ats
##burgh
##door
##ese
##ess
##herent
##ially
##iro
##lic
##mit
##nate
##nder
##oon
##pher
##tail
##ult
##vise
1970s
academy
activist
amazingly
asian
believes
believing
beneath
branches
bucks
column
constraints
construct
cosmic
covering
downtown
estimated
explains
gallery
glamorous
gore
helicopter
historic
historically
homo
july
keyboard
label
machinery
mathematicians
medicines
merely
minimum
moore
orders
passenger
performed
prosthetic
reduction
spain
storage
surrounding
tendency
terribly
traits
translated
trauma
ubiquitous
upside
vacuum
viral
washing
##ances
##day
##ening
##era
##ipe
##ored
##oring
##rupt
33
85
agent
analogy
bend
client
comments
contrary
correctly
cotton
crack
customer
damaged
difficulty
entrepreneur
equity
errors
expectancy
fits
generous
graduated
healing
hunting
hypothesis
influenced
instant
judgment
lt
maker
medication
nerves
outer
paradox
phosphorus
plain
planetary
precision
predictable
procedure
rating
ratio
screening
sexy
sharp
shipping
smith
soap
spacecraft
speaks
static
stays
structural
sunday
suspect
teenage
tribe
venture
wheelchair
wires
##ank
##ching
##ders
##erial
##gling
##iled
##mist
##more
##nation
##q
##rove
##tt
##ulator
##vant
1980s
absence
bat
bathroom
beijing
camps
concerns
concert
connects
decrease
devil
discipline
discovering
donor
drones
el
failures
fires
fortune
funds
happier
hardest
healthier
hired
johnson
journalism
mainstream
manner
measurements
mining
motors
nelson
neutral
physicists
profile
reflection
risky
robotics
sacrifice
safely
sanitation
sink
specialized
terrified
trace
tracks
tsunami
wandering
##ail
##be
##bie
##coming
##ef
##em
##ern
##inated
##ini
##mes
##mists
##ood
##orn
##plied
##print
##rator
##ti
##urs
1950s
1960
articles
attacked
attractive
balls
banking
ben
branch
bug
chile
counting
covers
democracies
drone
em
encouraged
endangered
expecting
fallen
fbi
females
generating
glamour
grace
graphic
hopes
impressive
investments
kills
landing
limitations
logical
loves
loving
lowest
ngos
panels
peoples
pride
proposed
prostate
reactions
reasonable
remarkably
republic
st
strategic
succeeded
translation
##art
##ave
##code
##cope
##down
##izes
##ja
##kins
##mas
##nes
##oot
##ory
##otic
##rush
##uction
##well
##wing
2002
28
accountability
agents
alarm
ambitious
athletes
audiences
berlin
chains
cliff
convey
curves
default
desperately
disabilities
dish
dive
drops
fate
freely
genetics
gentleman
harbor
harmony
hated
henry
ink
insulin
israeli
luxury
magnificent
mushroom
ongoing
origins
packed
password
peers
pulse
pursuit
recycling
remembering
researcher
seemingly
smallest
socially
stopping
straightforward
striking
syria
teenager
tension
territory
thus
tim
toes
transforming
trapped
trash
tune
un
winds
worrying
zealand
##ager
##asant
##bc
##bow
##case
##ced
##eds
##iral
##lan
##motion
##osphere
##pted
##quate
##rations
##reed
##thic
##ued
##ula
##vised
abandoned
accuracy
advances
affairs
association
attitudes
august
bangladesh
beautifully
belt
bin
binary
biologist
blah
bridges
chromosome
cleaning
collapsed
colored
completed
continuing
crew
crimes
curriculum
cycles
describing
detection
farms
farther
hometown
hunt
ignored
infant
intensity
interpretation
leaf
offering
ownership
package
pants
paralyzed
portion
proportion
protests
rats
reactor
readers
receiving
relation
sensor
subjective
summit
surgeons
swiss
telescopes
tone
tongue
volunteer
wedding
##ads
##ama
##aving
##eat
##eding
##ently
##hop
##imulate
##lash
##mb
##mia
##onic
##rds
##reaking
##rize
##tics
##ubble
##ugal
##uration
alexander
alternatives
annual
approved
barriers
beaten
brian
chimpanzee
classrooms
cluster
comedy
compassionate
compromise
courses
delhi
dilemma
ecology
equations
extraordinarily
geometry
glue
grave
heritage
illustrate
inclusive
intended
nowadays
officials
pan
passive
pause
philosopher
plastics
pockets
prisoners
profits
proved
rape
relief
remained
responded
sadly
scanner
screens
selfish
shit
significantly
slums
strip
sustain
transmit
wealthy
wheels
workforce
wound
##ake
##and
##are
##ax
##cover
##cure
##cycle
##dam
##fi
##fies
##imulated
##lar
##lessness
##ners
##pass
##rging
##rit
##rive
##sal
##sters
##sts
##tts
##ution
##vian
##vision
2015
accomplished
acknowledge
activate
aggressive
altitude
approaching
assemble
automobile
blindness
blown
bold
bombs
bored
bound
breakthrough
bruno
calories
charged
comic
concentration
constitution
cuts
denial
destroying
dies
disney
diving
documentary
doubled
dung
empower
encouraging
exposure
fever
forgot
formation
frightening
girlfriend
grades
indonesia
infections
landscapes
lions
manager
manipulate
meanwhile
memes
mentor
minority
mk
obstacles
occurs
pill
poems
pointing
prior
psychologists
pursue
realities
request
sensing
simpler
sized
stretch
taliban
tony
urge
variations
worms
worthy
wrap
wrist
yield
yourselves
##ald
##ality
##che
##crats
##ency
##eration
##hical
##idth
##ike
##iling
##ilo
##ith
##lity
##lize
##mo
##oil
##omics
##port
##pression
##rail
##ttered
50s
abundance
amazed
assignment
ban
belongs
brooklyn
builds
cake
captain
clarity
communicating
consensus
cows
dating
dawn
deepest
describes
electrodes
evolving
exploit
explored
expressed
formula
habits
immense
implement
indigenous
injured
intensive
introduction
lungs
managing
melt
melting
microphone
nuts
parkinson
phenomena
planted
purple
realistic
regulation
revealed
romantic
rubber
scanning
seattle
shanghai
shots
signature
smartphone
sooner
spinning
substance
switzerland
taxes
tear
thirty
tunnel
utterly
vessel
via
voted
william
##born
##dor
##ect
##eep
##gged
##graph
##ibly
##igrant
##iving
##nding
##orous
##ple
##po
##urity
##wl
##zzy
1960s
29
36
42
adopt
awkward
chronic
clue
coke
commit
computational
consuming
corners
criteria
endless
ethnic
expressions
follows
gabby
heading
ill
jeff
jihad
labeled
lego
lifted
meets
momentum
murder
nutrition
officers
overnight
pharmaceutical
philanthropy
profession
relatives
saudi
separation
sheets
slower
syndrome
ties
tiger
welfare
##ache
##aches
##ass
##cratic
##gles
##ground
##he
##ime
##kers
##lk
##mented
##ographic
##ployed
##ua
900
acid
affecting
april
astronomers
bite
blew
boundary
breeding
buses
cap
coach
coat
competing
contributed
delicious
destiny
devastating
discrimination
division
dopamine
dose
dutch
emergence
enjoyed
expanded
foundations
geography
hook
indians
installed
integration
isolation
jet
joint
jupiter
locations
marker
marketplace
minus
morality
narratives
november
offspring
palestinian
panic
pigeon
proven
reflected
refused
reproduce
restaurants
rethink
revolutionary
secretary
sectors
stack
stepped
supplies
supreme
teaches
tropical
turkey
twins
uh
vegetables
wore
##ame
##ception
##cho
##dder
##gers
##gie
##gies
##iary
##itor
##keepers
##len
##ncies
##net
##pace
##phone
##pic
##raine
##rived
##ship
##ush
##vated
##view
##vitation
aesthetic
afghan
andrew
approached
atomic
bacterial
bow
broader
bulb
bullet
carolina
clinics
consumed
corporation
demonstrated
discussions
distances
eliminate
fifty
fisheries
flavor
format
frames
goodbye
grasp
greece
grocery
handful
hoped
hopeful
identities
implant
informal
inherently
installation
interviews
jane
keys
leonardo
lit
mandela
mathematician
mimic
musician
overwhelming
paths
portraits
pray
prince
probe
proposal
proposition
psychologist
raises
raped
recognizing
rent
resist
ritual
sale
sandwich
scaling
shocked
shy
strings
sw
tanzania
touching
twin
unhappy
useless
##arily
##away
##eries
##iated
##ience
##inal
##lers
##lor
##minate
##mond
##ock
##ond
##rates
##ret
##tate
##ubs
##umps
##vine
##ys
1990
2020
ads
aged
alpha
appearance
assistance
beetle
behalf
belly
burst
calm
campus
catching
ceremony
commission
commons
controversial
countless
despair
destination
detroit
diameter
disagree
drought
duty
electron
elegant
enemies
enterprise
establish
eyed
fault
flesh
frequently
functioning
gained
genomes
hong
indicate
infectious
inmates
intersection
items
kindness
lanes
leather
masses
ministry
nano
nigerian
observations
org
partnership
passage
pet
phenomenal
pizza
platforms
politically
priority
punch
reserve
residents
rings
rituals
roles
rope
rotate
royal
singapore
sixth
skeletal
smiling
sperm
stomach
suck
supermarket
symphony
vary
vietnam
winner
##ack
##ait
##ansas
##bits
##fic
##hips
##ips
##kton
##lets
##lm
##olas
##oman
##oning
##ories
##pelled
##rities
##sity
##tary
##tude
##uise
##uke
##uts
##zard
##zy
1980
2030
accomplish
addressing
adjust
apollo
appeal
atlanta
authentic
backyard
bills
boats
bonds
bother
brazilian
breakfast
candidate
charter
chase
collaborate
compounds
contributing
criminals
crossed
desktop
earliest
fence
forgive
fraud
gear
greenland
gross
guarantee
halfway
hat
hawaii
higgs
icon
iconic
ideology
imagining
insane
intimate
jh
joe
legislation
lion
literacy
livestock
log
lonely
mankind
mask
mesh
mud
mutations
noises
opinions
outbreak
overwhelmed
predators
punishment
qaeda
refuse
reporting
resolve
retina
seal
select
selves
sequences
sheer
shortly
steam
stephen
targeted
texting
ton
towers
traditionally
trivial
tubes
watson
websites
##alty
##asis
##berry
##dal
##erry
##ett
##iance
##iel
##iology
##ired
##itate
##iti
##itions
##omic
##plication
##press
##rries
##rrow
##spect
##stream
##uated
##uilt
##ynthesis
18th
55
actively
allies
anticipate
apartments
approximately
asset
associate
astronomy
batteries
boots
bronx
canadian
cheat
climbed
clinton
comet
concentrated
contribution
cube
defend
desperate
diarrhea
documented
dough
drag
drum
drunk
egg
empowering
enhance
guard
hiding
hierarchy
humility
immigration
incentive
innovate
ireland
korean
lg
lincoln
locally
logo
longevity
ma
mammal
manual
mapped
migration
millimeter
namely
nodes
occupy
occurring
owners
patents
perceptions
pit
prey
purely
representing
routine
rover
sends
sensation
shine
sierra
simplest
sizes
smells
survivors
suspended
theoretical
therapies
thrilled
unconscious
understands
usage
veterans
visualize
waited
##aker
##ao
##ath
##cators
##culating
##ech
##ein
##ended
##etal
##eve
##fur
##hot
##ima
##itic
##itors
##ived
##lations
##long
##makers
##mental
##mous
##nant
##nter
##outs
##rative
##ridge
##rise
##riving
##roid
##ruption
350
abundant
adoption
advocate
alongside
antibiotic
aristotle
arthur
artwork
basketball
biases
cage
calculations
candidates
canyon
carpet
cart
classical
clubs
columns
congestion
creator
decent
deck
deploy
deployed
disgust
dropping
egyptian
electrons
embarrassing
emotionally
employment
encountered
exceptions
festival
glimpse
happily
hemisphere
impression
inevitably
injuries
integrate
intent
kiss
lands
likelihood
managers
meals
messy
modeling
monterey
nearest
onstage
ordered
passes
periods
peru
pour
practically
quarters
realization
reefs
regularly
riding
sake
scans
screaming
smallpox
soccer
spatial
stolen
swing
tolerance
tribal
trips
typing
warmer
wasted
woods
##ace
##beration
##cher
##cked
##connect
##cript
##eak
##ease
##etic
##gated
##graded
##las
##lated
##laws
##logical
##old
##ong
##ool
##ores
##pad
##pot
##read
##reak
##rent
##rified
##rot
##rse
##rust
##sible
##ssion
##tered
##ulus
##ups
##vel
##via
##vor
##wards
1999
2013
achieving
acquired
activated
aliens
altogether
argentina
armor
bio
bowl
calculated
canvas
carries
charlie
chemotherapy
comparing
composition
converted
dancers
deals
deciding
dirt
donors
enabling
engines
ex
firing
friction
gorgeous
harmful
headquarters
horizontal
hormone
horses
ibm
interpret
item
jews
knock
kong
laptops
mama
marrow
mixing
modified
motions
mt
nick
nonetheless
nonprofit
obsolete
optical
parenting
planned
poison
port
predator
pregnancy
prevention
producers
programmers
propaganda
pulls
recommend
shifted
shifts
shops
slime
stake
steven
survivor
switched
systematic
systematically
technically
temporary
texts
thrive
transit
trusted
virgin
visions
visiting
visualization
visually
youngest
##cco
##cess
##cidence
##cre
##ctic
##dicate
##fill
##gia
##hes
##hew
##ield
##ilation
##ivating
##ken
##loth
##mmer
##nia
##oe
##ona
##osh
##otive
##psy
##rants
##rassed
##rence
##ressed
##rps
##runk
##scend
##sia
##sions
##try
##uan
##uct
##ushed
##version
##vid
##vis
130
1950
1984
48
absorb
accelerate
accelerating
accountable
alex
anniversary
autistic
borrow
cardboard
catholic
chimps
circular
conduct
contained
deadly
decides
demo
determines
dictionaries
disturbing
dumb
enjoying
favorites
gamma
gardens
horror
implemented
install
intimacy
involve
jersey
junk
kicked
laughed
lean
lethal
losses
massively
millennium
miserable
mount
mozart
nevertheless
obese
olympic
pandemic
pays
peculiar
perspectives
philadelphia
pipe
pms
pot
protective
publishing
reaches
replacing
sail
sequencing
shocking
spreads
temple
terrain
trailer
trap
troops
ultraviolet
uniform
universes
voters
wage
warehouse
##91
##ancy
##ash
##bble
##berate
##clusive
##ear
##eering
##ek
##ep
##fusing
##grade
##graphy
##gular
##hers
##hist
##igation
##imate
##ional
##iry
##lete
##liers
##lix
##lve
##mates
##ola
##omy
##ously
##pressing
##rators
##stitute
##sy
##town
##uating
##uge
##unction
##unts
##vin
##wan
##weight
##ws
##yard
##zone
37
96
aluminum
ambition
argued
attempts
avatar
balloons
bamboo
barrel
brands
celebrated
celebrity
chamber
checking
chuck
civilizations
commodity
considering
continuously
convention
convicted
cosmos
counted
crap
cruel
custom
cyrus
defining
diamonds
earned
edit
emerges
empowerment
exhibit
exotic
fda
findings
float
formal
gandhi
grant
gravitational
heavily
incident
intention
investigate
jazz
jones
judges
kennedy
koran
laboratories
lap
league
lock
loose
lottery
lp
maintenance
masters
multiply
museums
naive
nasty
parachute
phoenix
pills
politician
preparation
principal
privileged
procedures
programmed
racing
randomly
recession
rejected
repeated
representative
returns
rises
santa
saturday
schizophrenia
server
seti
spends
stimulation
streams
surgical
tent
tightly
transformative
traumatic
ups
usa
vice
virtue
widespread
wrapped
yard
##16
##ains
##amine
##ased
##bby
##cious
##connected
##cribe
##cussion
##ees
##ents
##estimate
##ever
##ference
##fin
##gnet
##grams
##igating
##iment
##irs
##lu
##mentation
##mission
##onia
##ono
##plify
##rch
##rection
##rians
##ribute
##stitution
##stone
##take
##ths
##uits
##ulators
##vae
##vity
##wise
##worthy
1998
2014
72
acceptance
analog
analyzing
answering
assumed
assuming
automated
benjamin
berkeley
biosphere
calculus
cared
checked
collaborators
condoms
convenient
coordination
copenhagen
costa
cousin
cracks
delivering
diagnostic
emails
embracing
entities
entrance
fails
fatal
fired
foster
fragments
frontier
gasoline
generates
habit
heal
highlight
hop
hormones
humble
hunter
intact
investigation
justify
lane
laughs
maximum
millennia
minerals
mushrooms
negotiate
nitrogen
norms
occasion
pathway
pie
pouring
prescription
prototypes
publicly
reflects
remotely
rescued
scheme
shakespeare
shore
slice
sometime
sufficient
suggestion
talented
topics
tuned
virginia
ward
workplace
##ady
##arian
##arity
##ati
##ball
##bian
##cracy
##encing
##eon
##fa
##ficient
##fusion
##ginable
##hill
##icides
##int
##ject
##liness
##lood
##lus
##maker
##nating
##nies
##ogram
##oop
##oy
##pping
##productive
##rance
##ream
##rew
##station
##tis
##uis
##ulture
##uss
##usted
##xes
##ya
20s
31
abed
accounting
acres
adaptation
aims
album
analyzed
applies
arguing
astronauts
augmented
automatic
bind
brick
broadcast
cattle
choir
cinema
coca
codes
collision
cousins
coverage
cream
crude
debris
diplomacy
discussed
disruptive
distinction
economically
editors
eh
enormously
envelope
eve
everest
famously
fantasy
generic
generosity
glucose
grains
harry
helmet
hybrid
iceberg
implanted
indus
interconnected
iranian
jumping
kit
legitimate
liberty
longest
loses
matt
measurement
membrane
memorial
metals
metric
mines
mini
modest
newton
parasite
pencil
pleased
rains
redwood
regenerate
sahara
scream
sexuality
shorter
snowden
somalia
sounded
stadium
sticking
threatening
threshold
travels
triangle
twist
utility
weekend
wet
whoever
witnessed
##agan
##ai
##ault
##aze
##burg
##card
##cial
##clusion
##cro
##doors
##eers
##elly
##ement
##eological
##erson
##eting
##hen
##hive
##hou
##idal
##iding
##ilos
##isplaced
##istribute
##kin
##kind
##law
##like
##lings
##lip
##lls
##nical
##nounce
##piece
##ptics
##rade
##rat
##roducing
##roll
##rted
##servation
##taining
##tee
##umbled
##umbling
##umped
##usive
##viation
##yers
acceptable
accurately
acquire
adaptive
ancestor
apes
asleep
beam
boards
budgets
cafe
census
charges
chef
civilian
clusters
coastal
cola
conditioning
configuration
confronted
consent
conservatives
cope
cups
cyber
cylinder
danny
demanding
deserves
detector
duck
episode
examine
fans
fees
fertilizer
fi
fitness
gaza
gesture
gg
grabbed
habitats
hills
individually
intentions
jerusalem
jf
joshua
jungle
lamp
li
luther
magazines
marks
mere
metabolism
missions
networking
norden
offshore
penguin
physicians
playful
practicing
prevalence
princess
prisoner
progression
ptsd
reactors
reader
recall
regional
regulations
seals
siblings
skilled
snake
snakes
sp
spare
stasi
stepping
strands
supportive
tables
tale
terminal
tesla
themes
tight
touches
traces
trading
transmitted
viewed
whoa
wishes
yards
##75
##alt
##ason
##aw
##bable
##bos
##cination
##course
##din
##fire
##gled
##heses
##ind
##itude
##ker
##lay
##live
##loaded
##locked
##mill
##oids
##orship
##pense
##piration
##pulsion
##rading
##rational
##rc
##rect
##rip
##sha
##uctor
##uff
##uling
##unting
##urger
##urn
##utants
##xious
##yment
1900
97
affair
aggregate
alike
altered
assembled
atmospheric
atom
attach
attracted
authors
awake
award
awe
basement
caps
ceos
cheating
checks
cholera
compound
confined
consciously
cooling
cooperative
corrupt
critically
digging
discussing
doubling
dp
elevator
emma
foie
friendship
frog
genuine
grammar
gras
guards
hack
hmm
illustration
inflation
ingredient
interventions
invasive
ipod
jam
juice
kidding
leone
liberals
matched
norm
operated
persons
pete
planting
pose
primates
projections
promising
protocol
reasoning
reforms
revenues
reviews
rolled
satisfied
settled
shoe
skeptical
slave
slaves
spell
spiders
spite
staggering
staircase
stairs
strikes
struggled
suits
thermal
tiles
translator
transported
truths
variable
viewing
wiped
wives
yeast
##ander
##ato
##bar
##ccupied
##copy
##dar
##dated
##di
##ec
##enna
##eval
##fined
##frame
##gage
##gas
##gos
##heads
##ictory
##igrate
##iny
##iracy
##ires
##iss
##itory
##kies
##lance
##lical
##licate
##losure
##nics
##oam
##oking
##oned
##ortal
##osing
##pack
##phones
##position
##rio
##scent
##si
##ssy
##stal
##sted
##tel
##uba
##ulous
##umen
##umes
##unce
##uncing
##urge
##uri
##urish
##velt
##yer
adds
admire
ag
alaska
alright
arrest
assistant
asthma
attend
bacterium
bali
bikes
bitcoin
blogs
boiling
cares
chat
chess
chickens
coin
colorful
couch
craig
crispr
dare
disciplines
displays
dome
dreaming
ebay
egyptians
eighty
equals
ethics
executive
experimenting
filmed
fluorescent
frequencies
fruits
glaciers
grandma
graphs
guinea
hallucinations
hence
hugely
hurricane
indicates
infrared
inherited
jaw
judgments
knees
lakes
lasting
launching
libraries
logging
magnets
mastery
mexican
michigan
monster
multinational
mumbai
mutation
mycelium
nonsense
observing
operator
oven
participating
passions
pennsylvania
persuade
pressing
preventing
processed
psychiatric
quietly
ratings
receptor
reconstruct
recycled
referred
relates
renaissance
reserves
resilient
respected
rob
scaled
scholars
serves
seventh
shaking
shed
significance
sketch
spark
stare
tangible
texture
toilets
tokyo
towns
tuberculosis
tweet
ultrasound
verb
viewer
vulnerability
wages
wins
wooden
##97
##ac
##aid
##aring
##ata
##bon
##cities
##cking
##conds
##eal
##east
##enesis
##forced
##gnition
##igh
##ila
##ilized
##iva
##juana
##lared
##lax
##mine
##mitted
##nn
##ocate
##oked
##onomy
##ouse
##pedia
##pet
##plain
##range
##rict
##rily
##rim
##rupted
##sist
##sistence
##sses
##urd
##ursor
##using
##voted
##zer
##zes
1995
98
accent
accumulate
addiction
authenticity
avenue
beetles
bhutan
biologically
blockchain
cardiac
careers
caribbean
catastrophic
clues
compute
concentrate
convincing
copied
cr
craft
cuba
deficit
deliberately
determination
dishes
disk
distinguish
donated
drama
editor
ego
enters
entrepreneurial
expectation
explode
feeds
filling
firmly
folded
frustrating
gains
galapagos
gang
gate
gigantic
glow
goat
goodness
harness
headline
incomplete
inform
instinct
integrity
interfaces
inventor
involving
jealousy
jeopardy
laden
lee
lifespan
linux
mayors
mentally
metropolitan
midst
minded
ngo
nightmare
nonviolent
northeast
pin
problematic
professors
profitable
projection
racism
regard
reinvent
repeatedly
replacement
reveals
revolutions
richest
rigid
rna
scenarios
sculptures
semi
sexually
shining
slowed
span
squares
squid
stigma
storms
sucks
sulfide
symmetrical
tanks
thankfully
tolerant
toll
trait
ultra
upright
urgent
venus
visitors
vocal
von
weigh
weighs
##acious
##acy
##asize
##aster
##bin
##bodies
##bot
##cale
##cated
##cell
##ceptible
##changing
##con
##ctor
##cused
##cut
##cute
##don
##duced
##erness
##ester
##form
##fuse
##gelo
##iking
##inted
##ira
##isia
##itarian
##itated
##ket
##mize
##mpose
##obe
##ois
##onday
##ora
##ordinate
##orted
##ows
##pist
##pology
##rable
##rage
##rain
##rassment
##reck
##related
##requent
##ringe
##scopic
##shing
##sisted
##sistent
##struction
##trained
##ttes
##unted
##urable
##urance
##urb
##urfing
##urus
##uter
##utes
##venience
##vert
##wa
##ware
140
1945
1994
47
abroad
airline
apologize
apples
appreciation
artifacts
ashamed
attributes
backgrounds
baseline
behold
beneficial
biased
bloody
cables
cancers
candy
cape
centimeter
columbia
container
copper
crashes
daddy
delay
destructive
detected
disasters
edward
elizabeth
enthusiasm
enzymes
exceptional
exploded
exponentially
extremism
filmmaker
fingertips
fixing
flights
folding
folds
forty
forum
freezing
frogs
fungi
gestures
givers
govern
greatly
greeks
guitar
hans
hut
immigrants
improvements
independently
irony
issued
joseph
jumps
kilometer
leopard
lists
lobby
manipulation
marked
markers
maximize
meme
mum
neanderthals
nicely
noisy
obstacle
odor
operates
penis
phrases
pixels
predicting
premise
pressures
pricing
priorities
quo
rainforests
recovered
refrigerator
reject
relativity
researching
responding
responsibilities
romance
roofs
segment
shipped
shoots
speeds
spill
stealing
supports
surviving
suspicious
sylvia
symmetries
terrific
textbook
tide
tomato
torture
transferred
transformations
tricky
unfair
update
urbanization
viable
vitamin
vocabulary
volcanic
votes
workshop
writes
yemen
##20
##30s
##70
##89
##aching
##ado
##alysis
##asing
##asurable
##bal
##bet
##clining
##dge
##ecular
##eeping
##ession
##ffer
##friend
##gain
##guing
##hon
##ib
##ict
##ilated
##inine
##inor
##istics
##itize
##last
##leasing
##link
##lized
##lowed
##mad
##marks
##mining
##neous
##ols
##oven
##pics
##porate
##pses
##quently
##raction
##rism
##rist
##rized
##rong
##rsh
##tarian
##test
##tional
##tops
##tra
##tting
##typing
##uistic
##umble
##umping
##urbs
##urt
##vance
43
44
activism
alter
altruism
ambulance
apparent
ass
aunt
beds
biomass
blocking
boost
breakthroughs
brutal
buddha
campaigns
celebration
characteristic
clapping
clicks
clips
closet
collaborator
commerce
contents
contradiction
corresponds
couples
courageous
courts
dates
deception
depths
diagnose
diego
disappearing
disappointed
documenting
draws
dylan
easiest
elaborate
elementary
employee
entrepreneurship
eternal
exam
exploitation
fights
filters
finishing
finite
gallon
hatred
highways
honesty
honored
hyper
icons
innovators
liberia
loads
matching
metabolic
midnight
milky
mosque
newly
ninety
node
oklahoma
opposition
orientation
oriented
overseas
pad
passengers
pat
pervasive
pilots
poll
posters
presenting
presidential
promises
randomness
regulate
reporter
reproduction
rides
ridge
ross
sadness
saint
seawater
sensitivity
shares
shoulders
shrink
sidewalk
slogan
specialist
spontaneously
squeeze
statistical
statistically
tagged
tags
taller
tedtalk
textbooks
thriving
transactions
tuesday
uk
unfortunate
vagina
verbal
wonders
##!
###
##$
##%
##&
##'
##(
##)
##*
##+
##,
##-
##.
##/
##:
##;
##=
##?
##@
##[
##\
##]
##^
##_
##`
##¢
##£
##¿
##æ
##ø
##τ
##ย
##ร
##อ
##–
##—
##‘
##’
##“
##”
##•
##∇
##♪
##♫
